{"kind": "bpe", "base": ["\n", " ", "!", "\"", "$", "%", "&", "'", "(", ")", "+", ",", "-", ".", "/", "0", "1", "2", "3", "4", "5", "6", "7", "8", "9", ":", ";", "=", "?", "A", "B", "C", "D", "E", "F", "G", "H", "I", "J", "K", "L", "M", "N", "O", "P", "Q", "R", "S", "T", "U", "V", "W", "X", "Y", "Z", "[", "]", "a", "b", "c", "d", "e", "f", "g", "h", "i", "j", "k", "l", "m", "n", "o", "p", "q", "r", "s", "t", "u", "v", "w", "x", "y", "z", "|", "–", "—"], "merges": [[" ", "t"], [" ", "a"], ["i", "n"], ["h", "e"], ["o", "n"], ["e", "r"], ["a", "t"], ["r", "e"], [" t", "he"], ["e", "d"], ["a", "n"], ["e", "n"], ["o", "r"], [" ", "s"], [" ", "c"], ["i", "t"], [" ", "w"], ["a", "l"], [" ", "o"], ["e", "s"], [" ", "p"], ["i", "c"], ["a", "r"], ["r", "o"], ["i", "s"], [" a", "n"], [" ", "b"], ["i", "on"], ["in", "g"], [" ", "in"], [" o", "f"], [" an", "d"], ["l", "e"], ["a", "s"], [" ", "f"], [" ", "m"], [" ", "d"], ["o", "m"], [" t", "o"], ["u", "t"], ["c", "t"], ["en", "t"], [" ", "A"], ["e", "l"], [" t", "h"], [" ", "re"], ["u", "m"], ["u", "s"], [" ", "n"], [" p", "ro"], ["=", "="], ["c", "h"], ["q", "u"], [" ", "e"], [" ", "h"], ["at", "ion"], [" b", "e"], ["i", "l"], ["i", "m"], ["l", "y"], ["an", "t"], [" ", "T"], ["o", "s"], ["c", "e"], ["u", "r"], ["u", "l"], ["o", "l"], [" ", "l"], ["u", "n"], [" th", "at"], ["i", "g"], ["e", "t"], [" c", "om"], ["a", "m"], [" ", "1"], ["it", "h"], [" ", "qu"], ["v", "e"], ["o", "t"], [" w", "as"], [" ", "C"], [" ", "S"], [" a", "s"], [" f", "or"], [" ", "g"], ["\n", "\n"], [" ", "on"], ["v", "er"], ["s", "t"], [" com", "p"], ["a", "d"], ["a", "b"], [" ", "M"], ["ic", "al"], ["i", "f"], ["o", "w"], ["i", "d"], ["ant", "um"], [" d", "e"], [" ", "is"], [" ", "I"], [" c", "on"], ["e", "ct"], [" a", "l"], [" ", "B"], [" s", "u"], ["er", "s"], [" ", "("], ["i", "al"], ["is", "t"], [" qu", "antum"], [" 1", "9"], [" e", "x"], ["at", "e"], [" w", "ith"], [" T", "he"], [" a", "t"], ["m", "ent"], [" in", "t"], ["p", "l"], [" b", "y"], [" s", "t"], [" ", "it"], [" ", "us"], ["o", "p"], ["s", "e"], ["g", "e"], ["it", "y"], ["r", "a"], [" ", "\""], [" ", "P"], [" ", "G"], [" comp", "ut"], ["i", "r"], [" A", "I"], ["o", "d"], ["es", "t"], ["he", "r"], ["p", "er"], [" m", "a"], [" w", "h"], ["es", "s"], ["e", "m"], [" ", "H"], ["at", "ed"], [" ", "O"], ["b", "le"], [" ", "N"], [" 19", "4"], [" ", "2"], ["0", "0"], ["le", "ar"], ["p", "p"], ["==", "="], ["re", "s"], ["el", "l"], ["o", "g"], [" n", "e"], ["or", "k"], [" ", "un"], ["i", "es"], ["en", "ce"], ["in", "e"], [" ", "D"], [" ", "r"], [" ", "R"], ["j", "ect"], ["er", "e"], [" c", "an"], ["v", "el"], [" I", "n"], [" w", "ere"], ["o", "re"], [" ", "W"], ["e", "c"], [" ", "U"], [" a", "re"], ["o", "ul"], ["p", "t"], ["m", "s"], ["oul", "d"], ["a", "c"], ["ct", "ion"], ["u", "g"], [" ", "L"], ["f", "or"], [" ", "en"], ["ic", "h"], ["i", "um"], [" ", "F"], [" s", "p"], ["'", "s"], ["al", "l"], [" ", "k"], ["t", "er"], ["b", "er"], ["u", "d"], ["as", "s"], [" ", "J"], [" n", "ot"], [" ", "or"], ["r", "i"], ["ation", "s"], [" c", "l"], ["d", "u"], ["a", "y"], ["ro", "m"], ["ar", "ch"], [" p", "l"], ["a", "in"], ["o", "us"], ["t", "h"], [" ", "E"], [" pro", "ble"], ["il", "l"], [" 2", "0"], ["f", "f"], ["ig", "n"], ["if", "ic"], ["a", "p"], ["c", "ess"], [" h", "a"], ["i", "ve"], [" ", "v"], ["re", "d"], ["at", "es"], ["ar", "t"], [" ", "im"], ["ig", "h"], ["an", "d"], ["c", "i"], ["i", "v"], ["ar", "d"], ["ar", "y"], [" in", "c"], ["e", "p"], [" wh", "ich"], [" f", "rom"], [" A", "l"], ["a", "k"], ["ab", "le"], ["or", "y"], ["on", "s"], [" ", "he"], ["om", "b"], ["an", "s"], ["n", "ing"], ["g", "or"], ["ell", "ig"], ["en", "er"], ["gor", "ith"], ["u", "re"], ["d", "er"], ["b", "it"], [" ha", "ve"], [" al", "gorith"], ["vel", "op"], ["T", "he"], ["ul", "t"], [" d", "es"], ["or", "t"], ["os", "t"], ["u", "c"], ["e", "ch"], [" a", "r"], ["o", "un"], ["a", "ct"], ["n", "ow"], ["ug", "h"], [" a", "d"], ["t", "her"], [" cl", "ass"], [" re", "se"], [" c", "h"], [" con", "t"], ["o", "ut"], [" s", "y"], ["for", "m"], ["a", "g"], ["o", "c"], ["r", "u"], [" S", "t"], [" de", "velop"], ["u", "p"], [" m", "od"], [" ", "==="], ["v", "ed"], ["us", "t"], [" h", "ad"], ["ellig", "ence"], [" ", "lear"], [" us", "ed"], [" b", "ut"], [" U", "n"], ["y", "s"], [" a", "b"], [" a", "pp"], [" k", "now"], ["am", "e"], [" G", "ro"], [" pro", "ject"], [" b", "omb"], ["a", "re"], ["v", "es"], ["p", "ut"], [" M", "an"], [" s", "e"], ["it", "ion"], ["p", "le"], ["r", "it"], [" s", "h"], [" comput", "er"], [" p", "h"], [" a", "c"], ["g", "r"], ["uc", "lear"], ["a", "ch"], ["s", "ion"], [" th", "is"], ["k", "s"], ["a", "ge"], [" it", "s"], ["p", "h"], ["i", "re"], [" w", "ould"], ["or", "s"], [" su", "ch"], [" pro", "du"], ["st", "em"], ["s", "o"], [" s", "o"], [" d", "is"], ["an", "ium"], [" de", "c"], ["t", "e"], ["i", "z"], [" ", "ur"], ["il", "ity"], ["l", "ud"], [" g", "ener"], [" w", "he"], [" C", "om"], [" sy", "stem"], [" 20", "2"], [" s", "ol"], ["k", "e"], [" a", "g"], [" w", "ork"], [" P", "ro"], [" ma", "ch"], ["ut", "on"], ["f", "er"], ["i", "e"], [")", "."], [" pro", "cess"], [" be", "c"], [" be", "en"], [" proble", "ms"], [" n", "uclear"], ["um", "an"], ["id", "e"], ["om", "e"], ["s", "i"], ["at", "er"], [" lear", "ning"], ["ech", "n"], ["in", "d"], ["as", "t"], ["at", "ing"], ["w", "ork"], ["en", "d"], [" com", "m"], [" class", "ical"], [" m", "ore"], ["el", "y"], [" qu", "bit"], [" rese", "arch"], [" the", "ir"], ["c", "ed"], [" w", "e"], ["an", "g"], [" ", "le"], [" al", "l"], [" int", "o"], ["gr", "am"], ["igh", "t"], [" ur", "anium"], [" A", "r"], [" int", "elligence"], ["ic", "s"], [" us", "e"], [" o", "ther"], [" T", "h"], ["an", "y"], [" the", "y"], ["as", "e"], ["r", "y"], ["ation", "al"], [" p", "er"], [" o", "ut"], ["o", "ver"], ["ic", "i"], [" ", "K"], ["re", "n"], ["u", "al"], ["he", "d"], [" C", "h"], ["==", "=="], ["p", "os"], ["at", "t"], [" Gro", "ves"], ["on", "g"], [" m", "e"], [" mod", "el"], [" d", "if"], ["a", "v"], [" inc", "lud"], [" ex", "pl"], [" pro", "gram"], ["it", "e"], ["00", "0"], [" re", "qu"], [" re", "s"], [" des", "ign"], ["im", "e"], ["ist", "s"]]}