{"kind": "bpe", "base": ["\n", " ", "!", "\"", "$", "%", "&", "'", "(", ")", "+", ",", "-", ".", "/", "0", "1", "2", "3", "4", "5", "6", "7", "8", "9", ":", ";", "=", "?", "A", "B", "C", "D", "E", "F", "G", "H", "I", "J", "K", "L", "M", "N", "O", "P", "Q", "R", "S", "T", "U", "V", "W", "X", "Y", "Z", "[", "]", "a", "b", "c", "d", "e", "f", "g", "h", "i", "j", "k", "l", "m", "n", "o", "p", "q", "r", "s", "t", "u", "v", "w", "x", "y", "z", "|", "–", "—"], "merges": [[" ", "t"], [" ", "a"], ["i", "n"], ["h", "e"], ["o", "n"], ["e", "r"], ["a", "t"], ["r", "e"], [" t", "he"], ["e", "d"], ["a", "n"], ["e", "n"], ["o", "r"], [" ", "s"], [" ", "c"], ["i", "t"], [" ", "w"], ["a", "l"], [" ", "o"], ["e", "s"], [" ", "p"], ["i", "c"], ["a", "r"], ["r", "o"], ["i", "s"], [" a", "n"], [" ", "b"], ["i", "on"], ["in", "g"], [" ", "in"], [" o", "f"], [" an", "d"], ["l", "e"], ["a", "s"], [" ", "f"], [" ", "m"], [" ", "d"], ["o", "m"], [" t", "o"], ["u", "t"], ["c", "t"], ["en", "t"], [" ", "A"], ["e", "l"], [" t", "h"], [" ", "re"], ["u", "m"], ["u", "s"], [" ", "n"], [" p", "ro"], ["=", "="], ["c", "h"], ["q", "u"], [" ", "e"], [" ", "h"], ["at", "ion"], [" b", "e"], ["i", "l"], ["i", "m"], ["l", "y"], ["an", "t"], [" ", "T"], ["o", "s"], ["c", "e"], ["u", "r"], ["u", "l"], ["o", "l"], [" ", "l"], ["u", "n"], [" th", "at"], ["i", "g"], ["e", "t"], [" c", "om"], ["a", "m"], [" ", "1"], ["it", "h"], [" ", "qu"], ["v", "e"], ["o", "t"], [" w", "as"], [" ", "C"], [" ", "S"], [" a", "s"], [" f", "or"], [" ", "g"], ["\n", "\n"], [" ", "on"], ["v", "er"], ["s", "t"], [" com", "p"], ["a", "d"], ["a", "b"], [" ", "M"], ["ic", "al"], ["i", "f"], ["o", "w"], ["i", "d"], ["ant", "um"], [" d", "e"], [" ", "is"], [" ", "I"], [" c", "on"], ["e", "ct"], [" a", "l"], [" ", "B"], [" s", "u"], ["er", "s"], [" ", "("], ["i", "al"], ["is", "t"], [" qu", "antum"], [" 1", "9"], [" e", "x"], ["at", "e"], [" w", "ith"], [" T", "he"], [" a", "t"], ["m", "ent"], [" in", "t"], ["p", "l"], [" b", "y"], [" s", "t"], [" ", "it"], [" ", "us"], ["o", "p"], ["s", "e"], ["g", "e"], ["it", "y"], ["r", "a"], [" ", "\""], [" ", "P"], [" ", "G"], [" comp", "ut"], ["i", "r"], [" A", "I"], ["o", "d"], ["es", "t"], ["he", "r"], ["p", "er"], [" m", "a"], [" w", "h"], ["es", "s"], ["e", "m"], [" ", "H"], ["at", "ed"], [" ", "O"], ["b", "le"], [" ", "N"], [" 19", "4"], [" ", "2"], ["0", "0"], ["le", "ar"], ["p", "p"], ["==", "="], ["re", "s"], ["el", "l"], ["o", "g"], [" n", "e"], ["or", "k"], [" ", "un"], ["i", "es"], ["en", "ce"], ["in", "e"], [" ", "D"], [" ", "r"], [" ", "R"], ["j", "ect"], ["er", "e"], [" c", "an"], ["v", "el"], [" I", "n"], [" w", "ere"], ["o", "re"], [" ", "W"], ["e", "c"], [" ", "U"], [" a", "re"], ["o", "ul"], ["p", "t"], ["m", "s"], ["oul", "d"], ["a", "c"], ["ct", "ion"], ["u", "g"], [" ", "L"], ["f", "or"], [" ", "en"], ["ic", "h"], ["i", "um"], [" ", "F"], [" s", "p"], ["'", "s"], ["al", "l"], [" ", "k"], ["t", "er"], ["b", "er"], ["u", "d"], ["as", "s"], [" ", "J"], [" n", "ot"], [" ", "or"], ["r", "i"], ["ation", "s"], [" c", "l"], ["d", "u"], ["a", "y"], ["ro", "m"], ["ar", "ch"], [" p", "l"], ["a", "in"], ["o", "us"], ["t", "h"], [" ", "E"], [" pro", "ble"], ["il", "l"], [" 2", "0"], ["f", "f"], ["ig", "n"], ["if", "ic"], ["a", "p"], ["c", "ess"], [" h", "a"], ["i", "ve"], [" ", "v"], ["re", "d"], ["at", "es"], ["ar", "t"], [" ", "im"], ["ig", "h"], ["an", "d"], ["c", "i"], ["i", "v"], ["ar", "d"], ["ar", "y"], [" in", "c"], ["e", "p"], [" wh", "ich"], [" f", "rom"], [" A", "l"], ["a", "k"], ["ab", "le"], ["or", "y"], ["on", "s"], [" ", "he"], ["om", "b"], ["an", "s"], ["n", "ing"], ["g", "or"], ["ell", "ig"], ["en", "er"], ["gor", "ith"], ["u", "re"], ["d", "er"], ["b", "it"], [" ha", "ve"], [" al", "gorith"], ["vel", "op"], ["T", "he"], ["ul", "t"], [" d", "es"], ["or", "t"], ["os", "t"], ["u", "c"], ["e", "ch"], [" a", "r"], ["o", "un"], ["a", "ct"], ["n", "ow"], ["ug", "h"], [" a", "d"], ["t", "her"], [" cl", "ass"], [" re", "se"], [" c", "h"], [" con", "t"], ["o", "ut"], [" s", "y"], ["for", "m"], ["a", "g"], ["o", "c"], ["r", "u"], [" S", "t"], [" de", "velop"], ["u", "p"], [" m", "od"], [" ", "==="], ["v", "ed"], ["us", "t"], [" h", "ad"], ["ellig", "ence"], [" ", "lear"], [" us", "ed"], [" b", "ut"], [" U", "n"], ["y", "s"], [" a", "b"], [" a", "pp"], [" k", "now"], ["am", "e"], [" G", "ro"], [" pro", "ject"], [" b", "omb"], ["a", "re"], ["v", "es"], ["p", "ut"], [" M", "an"], [" s", "e"], ["it", "ion"], ["p", "le"], ["r", "it"], [" s", "h"], [" comput", "er"], [" p", "h"], [" a", "c"], ["g", "r"], ["uc", "lear"], ["a", "ch"], ["s", "ion"], [" th", "is"], ["k", "s"], ["a", "ge"], [" it", "s"], ["p", "h"], ["i", "re"], [" w", "ould"], ["or", "s"], [" su", "ch"], [" pro", "du"], ["st", "em"], ["s", "o"], [" s", "o"], [" d", "is"], ["an", "ium"], [" de", "c"], ["t", "e"], ["i", "z"], [" ", "ur"], ["il", "ity"], ["l", "ud"], [" g", "ener"], [" w", "he"], [" C", "om"], [" sy", "stem"], [" 20", "2"], [" s", "ol"], ["k", "e"], [" a", "g"], [" w", "ork"], [" P", "ro"], [" ma", "ch"], ["ut", "on"], ["f", "er"], ["i", "e"], [")", "."], [" pro", "cess"], [" be", "c"], [" be", "en"], [" proble", "ms"], [" n", "uclear"], ["um", "an"], ["id", "e"], ["om", "e"], ["s", "i"], ["at", "er"], [" lear", "ning"], ["ech", "n"], ["in", "d"], ["as", "t"], ["at", "ing"], ["w", "ork"], ["en", "d"], [" com", "m"], [" class", "ical"], [" m", "ore"], ["el", "y"], [" qu", "bit"], [" rese", "arch"], [" the", "ir"], ["c", "ed"], [" w", "e"], ["an", "g"], [" ", "le"], [" al", "l"], [" int", "o"], ["gr", "am"], ["igh", "t"], [" ur", "anium"], [" A", "r"], [" int", "elligence"], ["ic", "s"], [" us", "e"], [" o", "ther"], [" T", "h"], ["an", "y"], [" the", "y"], ["as", "e"], ["r", "y"], ["ation", "al"], [" p", "er"], [" o", "ut"], ["o", "ver"], ["ic", "i"], [" ", "K"], ["re", "n"], ["u", "al"], ["he", "d"], [" C", "h"], ["==", "=="], ["p", "os"], ["at", "t"], [" Gro", "ves"], ["on", "g"], [" m", "e"], [" mod", "el"], [" d", "if"], ["a", "v"], [" inc", "lud"], [" ex", "pl"], [" pro", "gram"], ["it", "e"], ["00", "0"], [" re", "qu"], [" re", "s"], [" des", "ign"], ["im", "e"], ["ist", "s"], [" int", "er"], ["f", "ic"], ["om", "ic"], ["is", "h"], [" o", "ver"], ["l", "ed"], [" t", "echn"], [" p", "re"], [" ab", "out"], [" app", "ro"], [" p", "os"], ["ver", "s"], ["ab", "or"], ["ific", "ial"], [" proble", "m"], [" t", "r"], [" n", "et"], ["i", "a"], ["l", "i"], ["\"", "."], ["r", "ic"], [" re", "p"], [" net", "work"], [" o", "per"], ["ol", "og"], ["in", "t"], [" comput", "ers"], ["is", "ion"], [" s", "ci"], [" algorith", "ms"], [" us", "ing"], ["o", "ugh"], [" im", "p"], ["er", "m"], ["ir", "st"], [" th", "an"], ["is", "sion"], ["y", "p"], ["p", "pl"], [" s", "im"], ["an", "ce"], [" un", "der"], ["h", "att"], ["hatt", "an"], ["Q", "u"], [" h", "uman"], ["ur", "al"], ["as", "ed"], ["un", "d"], [" h", "as"], [" c", "ould"], ["l", "d"], ["os", "e"], [" mach", "ine"], [" d", "at"], ["en", "s"], ["uton", "ium"], ["in", "ed"], [" st", "ate"], [" D", "e"], [" e", "ff"], ["il", "it"], ["ri", "b"], [" s", "c"], ["ment", "s"], [" re", "c"], ["I", "n"], [" e", "v"], ["1", "9"], ["ur", "ing"], ["u", "b"], ["it", "ed"], [" Man", "hattan"], [" Pro", "ject"], ["ent", "ial"], [" m", "ost"], ["or", "d"], ["ent", "s"], ["w", "o"], [" f", "irst"], ["ar", "s"], [" ph", "ys"], [" s", "ec"], [" m", "et"], ["in", "es"], [" al", "so"], [" c", "o"], [" t", "ra"], ["res", "s"], ["m", "it"], ["t", "ificial"], ["g", "ine"], ["i", "le"], ["form", "ation"], [" p", "art"], [" ma", "y"], [" in", "v"], [" on", "e"], [" we", "ap"], ["v", "ing"], [" I", "t"], ["i", "el"], ["ar", "ly"], [" con", "s"], [" l", "ar"], ["a", "us"], [" d", "o"], ["at", "ory"], ["re", "e"], ["he", "m"], ["c", "es"], [" a", "ppl"], [" ", "ro"], [" tr", "ans"], ["s", "u"], ["m", "er"], ["e", "ver"], [" pos", "si"], ["o", "b"], [" algorith", "m"], [" pl", "utonium"], [" 194", "5"], ["ici", "ent"], ["t", "ed"], [" l", "og"], [" Th", "is"], [" sp", "ec"], [" ex", "per"], [" n", "um"], [" dat", "a"], [" B", "rit"], [" f", "e"], ["st", "ru"], ["iel", "d"], [" m", "at"], [")", ","], [" ", "j"], ["ol", "ic"], [" s", "ome"], ["ra", "ct"], ["le", "ct"], [" ", "Y"], ["i", "an"], ["i", "p"], [" ", "est"], [" n", "o"], [" sci", "ent"], ["Qu", "antum"], [" as", "s"], [" know", "n"], ["o", "y"], ["m", "b"], ["i", "ed"], ["ow", "ever"], [" t", "wo"], ["w", "e"], ["t", "s"], [" w", "ar"], ["i", "o"], [" c", "re"], [" comp", "le"], [" an", "y"], ["oun", "d"], [" su", "b"], ["it", "s"], ["at", "ive"], ["or", "ld"], ["ut", "ion"], [" su", "per"], [" wh", "o"], ["f", "ul"], ["abor", "atory"], ["ical", "ly"], ["al", "s"], ["ic", "ations"], ["a", "ce"], [" develop", "ed"], [" in", "formation"], [" at", "omic"], [" m", "any"], [" on", "ly"], ["on", "d"], [" h", "igh"], ["ab", "l"], ["f", "t"], [" ad", "v"], [" inc", "re"], [" 20", "1"], [" at", "t"], [" lar", "ge"], ["u", "il"], [" Brit", "ish"], [" comput", "ing"], ["g", "et"], [" t", "ime"], ["on", "e"], ["i", "vers"], [" pl", "ant"], [" t", "as"], ["w", "are"], ["ol", "l"], ["ial", "ly"], ["er", "n"], [" dis", "c"], ["ol", "s"], [" o", "b"], [" be", "g"], [" ne", "w"], [" be", "t"], [" Un", "ited"], [" 194", "3"], [" E", "n"], [" Al", "am"], ["ab", "ility"], [" system", "s"], ["is", "e"], ["ar", "c"], ["her", "s"], [" ", "up"], [" p", "e"], ["ill", "ion"], [" b", "uil"], ["o", "v"], ["i", "red"], [" sp", "e"], [" comput", "ation"], [" N", "e"], ["ic", "e"], ["er", "r"], [" h", "is"], [" L", "os"], ["te", "e"], [" re", "as"], [" the", "se"], [" whe", "n"], ["i", "ous"], ["k", "ing"], [" model", "s"], ["pp", "en"], [" ex", "am"], ["n", "e"], [" d", "ire"], ["al", "e"], ["a", "w"], ["m", "ber"], [" Ar", "m"], [" Alam", "os"], ["A", "I"], ["ce", "pt"], ["res", "ent"], [" for", "m"], [" r", "is"], [" ex", "p"], ["aus", "e"], ["ow", "er"], [" t", "e"], [" a", "ut"], [" possi", "ble"], [" ", "if"], [" the", "re"], [" d", "et"], [" c", "all"], [" S", "e"], ["a", "il"], [" a", "m"], [" ", "3"], [" ", "y"], [" 194", "4"], [" dec", "ision"], ["gine", "er"], [" g", "o"], ["led", "ge"], [" network", "s"], ["ro", "ugh"], [" bec", "ame"], ["t", "ain"], ["ing", "s"], ["t", "he"], ["ers", "on"], ["al", "ly"], ["ph", "a"], [" the", "m"], [" t", "est"], [" l", "i"], [" A", "t"], ["act", "or"], [" A", "ug"], [" Aug", "ust"], [" 194", "2"], [" con", "stru"], [" reas", "on"], ["h", "od"], [" se", "arch"], [" G", "o"], ["ang", "u"], [" log", "ic"], ["f", "ter"], [" ", "ra"], [" re", "l"], [" ", "===="], [" st", "ates"], [" s", "ur"], ["we", "en"], ["ol", "d"], [" dire", "ct"], [" Arm", "y"], ["im", "er"], [" ", "err"], [" met", "hod"], [" know", "ledge"], [" l", "angu"], ["arc", "hers"], [" includ", "ing"], [" o", "pt"], [" ar", "tificial"], ["op", "le"], [" num", "ber"], ["al", "u"], ["ter", "n"], ["is", "hed"], [" cont", "ro"], [" c", "or"], [".", "\""], [" C", "ol"], [" R", "o"], [" ", "$"], ["ppen", "he"], ["ppenhe", "imer"], ["ivers", "ity"], [" tas", "ks"], [" t", "yp"], ["c", "on"], ["olog", "y"], [" con", "c"], [" des", "c"], [" dif", "fic"], [" diffic", "ult"], [" a", "v"], [" me", "as"], ["r", "on"], ["ac", "k"], [" ", "5"], [" in", "d"], [" pro", "v"], ["mer", "ic"], [" O", "ppenheimer"], [" qubit", "s"], ["hem", "at"], ["ction", "s"], ["ro", "s"], ["id", "ed"], [" ", "=="], [" pro", "b"], ["os", "ion"], ["\"", ","], [" pe", "ople"], ["c", "om"], ["ar", "k"], ["w", "ard"], [" call", "ed"], [" beg", "an"], [" exam", "ple"], [" su", "c"], [" contro", "l"], [" C", "on"], ["id", "ent"], [" of", "fic"], [" St", "ates"], ["ub", "l"], [" A", "meric"], ["id", "ge"], [" e", "qu"], [" Com", "mit"], [" Commit", "tee"], ["ren", "ce"], [" appl", "ications"], ["g", "y"], [" ne", "ural"], [" th", "rough"], ["es", "p"], [" p", "ot"], ["pl", "oy"], ["x", "t"], [" ", "ent"], [" w", "ill"], ["o", "k"], [" s", "ign"], [" whe", "re"], ["ro", "p"], ["us", "ion"], ["ot", "h"], [" H", "owever"], [" bet", "ween"], ["n", "et"], [" est", "abl"], [" J", "u"], [" Ju", "ly"], [" Ne", "w"], [" L", "aboratory"], [" Un", "iversity"], ["iz", "ed"], [" re", "m"], [" ", "Quantum"], [" reason", "ing"], [" mat", "hemat"], [" de", "f"], ["is", "m"], [" pot", "ential"], [" desc", "rib"], [" out", "put"], ["in", "ce"], ["i", "et"], ["u", "ch"], ["c", "ul"], ["ect", "ed"], [" the", "n"], ["is", "ed"], ["ic", "t"], [" suc", "cess"], [" res", "ult"], [" p", "ri"], ["he", "n"], ["o", "ur"], [" rep", "ort"], ["ual", "ly"], [" T", "r"], ["ilit", "ary"], ["h", "or"], ["over", "n"], ["av", "y"], [" t", "ak"], ["l", "es"], [" an", "al"], ["he", "s"], [" rese", "archers"], [" gener", "al"], [" g", "ro"], [" ad", "d"], [" l", "ong"], [" ex", "ist"], [" A", "n"], ["iv", "es"], ["er", "v"], [" be", "h"], [" in", "put"], ["s", "p"], [" N", "o"], [" ", "V"], [" pro", "pos"], ["icient", "ly"], [" spe", "ed"], ["s", "c"], [" develop", "ment"], ["ac", "y"], ["oun", "t"], [" d", "ist"], [" inv", "est"], ["ad", "e"], [" scient", "ists"], ["em", "ber"], ["ars", "h"], [" w", "ater"], [" err", "or"], [" langu", "age"], [" b", "ased"], [" be", "ing"], [" re", "g"], [" bec", "ause"], [" re", "al"], [" s", "et"], [" F", "or"], ["vel", "y"], ["m", "an"], [" A", "s"], [" a", "ct"], ["ic", "k"], ["c", "y"], ["it", "ies"], [" c", "ent"], [" H", "e"], [" de", "m"], ["st", "r"], ["g", "u"], [" in", "it"], ["e", "b"], [" weap", "ons"], [" p", "ubl"], [" 1", "0"], ["du", "ct"], [" W", "ar"], ["t", "on"], [" O", "ak"], [" R", "idge"], [".", ","], ["ag", "es"], ["i", "qu"], [" opt", "im"], ["ra", "ph"], [" ac", "c"], [" all", "ow"], [" sim", "ul"], ["ilit", "ies"], ["er", "tain"], [" requ", "ire"], [" m", "illion"], ["el", "f"], [" s", "it"], ["u", "res"], ["if", "ied"], ["e", "y"], [" f", "ac"], [" m", "o"]]}