{"kind": "bpe", "base": ["\n", " ", "!", "\"", "$", "%", "&", "'", "(", ")", "+", ",", "-", ".", "/", "0", "1", "2", "3", "4", "5", "6", "7", "8", "9", ":", ";", "=", "?", "A", "B", "C", "D", "E", "F", "G", "H", "I", "J", "K", "L", "M", "N", "O", "P", "Q", "R", "S", "T", "U", "V", "W", "X", "Y", "Z", "[", "]", "a", "b", "c", "d", "e", "f", "g", "h", "i", "j", "k", "l", "m", "n", "o", "p", "q", "r", "s", "t", "u", "v", "w", "x", "y", "z", "|", "–", "—"], "merges": [[" ", "t"], [" ", "a"], ["i", "n"], ["h", "e"], ["o", "n"], ["e", "r"], ["a", "t"], ["r", "e"], [" t", "he"], ["e", "d"], ["a", "n"], ["e", "n"], ["o", "r"], [" ", "s"], [" ", "c"], ["i", "t"], [" ", "w"], ["a", "l"], [" ", "o"], ["e", "s"], [" ", "p"], ["i", "c"], ["a", "r"], ["r", "o"], ["i", "s"], [" a", "n"], [" ", "b"], ["i", "on"], ["in", "g"], [" ", "in"], [" o", "f"], [" an", "d"], ["l", "e"], ["a", "s"], [" ", "f"], [" ", "m"], [" ", "d"], ["o", "m"], [" t", "o"], ["u", "t"], ["c", "t"], ["en", "t"], [" ", "A"], ["e", "l"], [" t", "h"], [" ", "re"], ["u", "m"], ["u", "s"], [" ", "n"], [" p", "ro"], ["=", "="], ["c", "h"], ["q", "u"], [" ", "e"], [" ", "h"], ["at", "ion"], [" b", "e"], ["i", "l"], ["i", "m"], ["l", "y"], ["an", "t"], [" ", "T"], ["o", "s"], ["c", "e"], ["u", "r"], ["u", "l"], ["o", "l"], [" ", "l"], ["u", "n"], [" th", "at"], ["i", "g"], ["e", "t"], [" c", "om"], ["a", "m"], [" ", "1"], ["it", "h"], [" ", "qu"], ["v", "e"], ["o", "t"], [" w", "as"], [" ", "C"], [" ", "S"], [" a", "s"], [" f", "or"], [" ", "g"], ["\n", "\n"], [" ", "on"], ["v", "er"], ["s", "t"], [" com", "p"], ["a", "d"], ["a", "b"], [" ", "M"], ["ic", "al"], ["i", "f"], ["o", "w"], ["i", "d"], ["ant", "um"], [" d", "e"], [" ", "is"], [" ", "I"], [" c", "on"], ["e", "ct"], [" a", "l"], [" ", "B"], [" s", "u"], ["er", "s"], [" ", "("], ["i", "al"], ["is", "t"], [" qu", "antum"], [" 1", "9"], [" e", "x"], ["at", "e"], [" w", "ith"], [" T", "he"], [" a", "t"], ["m", "ent"], [" in", "t"], ["p", "l"], [" b", "y"], [" s", "t"], [" ", "it"], [" ", "us"], ["o", "p"], ["s", "e"], ["g", "e"], ["it", "y"], ["r", "a"], [" ", "\""], [" ", "P"], [" ", "G"], [" comp", "ut"], ["i", "r"], [" A", "I"], ["o", "d"], ["es", "t"], ["he", "r"], ["p", "er"], [" m", "a"], [" w", "h"], ["es", "s"], ["e", "m"], [" ", "H"], ["at", "ed"], [" ", "O"], ["b", "le"], [" ", "N"], [" 19", "4"], [" ", "2"], ["0", "0"], ["le", "ar"], ["p", "p"], ["==", "="], ["re", "s"], ["el", "l"], ["o", "g"], [" n", "e"], ["or", "k"], [" ", "un"], ["i", "es"], ["en", "ce"], ["in", "e"], [" ", "D"], [" ", "r"], [" ", "R"], ["j", "ect"], ["er", "e"], [" c", "an"], ["v", "el"], [" I", "n"], [" w", "ere"], ["o", "re"], [" ", "W"], ["e", "c"], [" ", "U"], [" a", "re"], ["o", "ul"], ["p", "t"], ["m", "s"], ["oul", "d"], ["a", "c"], ["ct", "ion"], ["u", "g"], [" ", "L"], ["f", "or"], [" ", "en"], ["ic", "h"], ["i", "um"], [" ", "F"], [" s", "p"], ["'", "s"], ["al", "l"], [" ", "k"], ["t", "er"], ["b", "er"], ["u", "d"], ["as", "s"], [" ", "J"], [" n", "ot"], [" ", "or"], ["r", "i"], ["ation", "s"], [" c", "l"], ["d", "u"], ["a", "y"], ["ro", "m"], ["ar", "ch"], [" p", "l"], ["a", "in"], ["o", "us"], ["t", "h"], [" ", "E"], [" pro", "ble"], ["il", "l"], [" 2", "0"], ["f", "f"], ["ig", "n"], ["if", "ic"], ["a", "p"], ["c", "ess"], [" h", "a"], ["i", "ve"], [" ", "v"], ["re", "d"], ["at", "es"], ["ar", "t"], [" ", "im"], ["ig", "h"], ["an", "d"], ["c", "i"], ["i", "v"], ["ar", "d"], ["ar", "y"], [" in", "c"], ["e", "p"], [" wh", "ich"], [" f", "rom"], [" A", "l"], ["a", "k"], ["ab", "le"], ["or", "y"], ["on", "s"], [" ", "he"], ["om", "b"], ["an", "s"], ["n", "ing"], ["g", "or"], ["ell", "ig"], ["en", "er"], ["gor", "ith"], ["u", "re"], ["d", "er"], ["b", "it"], [" ha", "ve"], [" al", "gorith"], ["vel", "op"], ["T", "he"], ["ul", "t"], [" d", "es"], ["or", "t"], ["os", "t"], ["u", "c"], ["e", "ch"], [" a", "r"], ["o", "un"], ["a", "ct"], ["n", "ow"], ["ug", "h"], [" a", "d"], ["t", "her"], [" cl", "ass"], [" re", "se"], [" c", "h"], [" con", "t"], ["o", "ut"], [" s", "y"], ["for", "m"], ["a", "g"], ["o", "c"], ["r", "u"], [" S", "t"], [" de", "velop"], ["u", "p"], [" m", "od"], [" ", "==="], ["v", "ed"], ["us", "t"], [" h", "ad"], ["ellig", "ence"], [" ", "lear"], [" us", "ed"], [" b", "ut"], [" U", "n"], ["y", "s"], [" a", "b"], [" a", "pp"], [" k", "now"], ["am", "e"], [" G", "ro"], [" pro", "ject"], [" b", "omb"], ["a", "re"], ["v", "es"], ["p", "ut"], [" M", "an"], [" s", "e"], ["it", "ion"], ["p", "le"], ["r", "it"], [" s", "h"], [" comput", "er"], [" p", "h"], [" a", "c"], ["g", "r"], ["uc", "lear"], ["a", "ch"], ["s", "ion"], [" th", "is"], ["k", "s"], ["a", "ge"], [" it", "s"], ["p", "h"], ["i", "re"], [" w", "ould"], ["or", "s"], [" su", "ch"], [" pro", "du"], ["st", "em"], ["s", "o"], [" s", "o"], [" d", "is"], ["an", "ium"], [" de", "c"], ["t", "e"], ["i", "z"], [" ", "ur"], ["il", "ity"], ["l", "ud"], [" g", "ener"], [" w", "he"], [" C", "om"], [" sy", "stem"], [" 20", "2"], [" s", "ol"], ["k", "e"], [" a", "g"], [" w", "ork"], [" P", "ro"], [" ma", "ch"], ["ut", "on"], ["f", "er"], ["i", "e"], [")", "."], [" pro", "cess"], [" be", "c"], [" be", "en"], [" proble", "ms"], [" n", "uclear"], ["um", "an"], ["id", "e"], ["om", "e"], ["s", "i"], ["at", "er"], [" lear", "ning"], ["ech", "n"], ["in", "d"], ["as", "t"], ["at", "ing"], ["w", "ork"], ["en", "d"], [" com", "m"], [" class", "ical"], [" m", "ore"], ["el", "y"], [" qu", "bit"], [" rese", "arch"], [" the", "ir"], ["c", "ed"], [" w", "e"], ["an", "g"], [" ", "le"], [" al", "l"], [" int", "o"], ["gr", "am"], ["igh", "t"], [" ur", "anium"], [" A", "r"], [" int", "elligence"], ["ic", "s"], [" us", "e"], [" o", "ther"], [" T", "h"], ["an", "y"], [" the", "y"], ["as", "e"], ["r", "y"], ["ation", "al"], [" p", "er"], [" o", "ut"], ["o", "ver"], ["ic", "i"], [" ", "K"], ["re", "n"], ["u", "al"], ["he", "d"], [" C", "h"], ["==", "=="], ["p", "os"], ["at", "t"], [" Gro", "ves"], ["on", "g"], [" m", "e"], [" mod", "el"], [" d", "if"], ["a", "v"], [" inc", "lud"], [" ex", "pl"], [" pro", "gram"], ["it", "e"], ["00", "0"], [" re", "qu"], [" re", "s"], [" des", "ign"], ["im", "e"], ["ist", "s"], [" int", "er"], ["f", "ic"], ["om", "ic"], ["is", "h"], [" o", "ver"], ["l", "ed"], [" t", "echn"], [" p", "re"], [" ab", "out"], [" app", "ro"], [" p", "os"], ["ver", "s"], ["ab", "or"], ["ific", "ial"], [" proble", "m"], [" t", "r"], [" n", "et"], ["i", "a"], ["l", "i"], ["\"", "."], ["r", "ic"], [" re", "p"], [" net", "work"], [" o", "per"], ["ol", "og"], ["in", "t"], [" comput", "ers"], ["is", "ion"], [" s", "ci"], [" algorith", "ms"], [" us", "ing"], ["o", "ugh"], [" im", "p"], ["er", "m"], ["ir", "st"], [" th", "an"], ["is", "sion"], ["y", "p"], ["p", "pl"], [" s", "im"], ["an", "ce"], [" un", "der"], ["h", "att"], ["hatt", "an"], ["Q", "u"], [" h", "uman"], ["ur", "al"], ["as", "ed"], ["un", "d"], [" h", "as"], [" c", "ould"], ["l", "d"], ["os", "e"], [" mach", "ine"], [" d", "at"], ["en", "s"], ["uton", "ium"], ["in", "ed"], [" st", "ate"], [" D", "e"], [" e", "ff"], ["il", "it"], ["ri", "b"], [" s", "c"], ["ment", "s"], [" re", "c"], ["I", "n"], [" e", "v"], ["1", "9"], ["ur", "ing"], ["u", "b"], ["it", "ed"], [" Man", "hattan"], [" Pro", "ject"], ["ent", "ial"], [" m", "ost"], ["or", "d"], ["ent", "s"], ["w", "o"], [" f", "irst"], ["ar", "s"], [" ph", "ys"], [" s", "ec"], [" m", "et"], ["in", "es"], [" al", "so"], [" c", "o"], [" t", "ra"], ["res", "s"], ["m", "it"], ["t", "ificial"], ["g", "ine"], ["i", "le"], ["form", "ation"], [" p", "art"], [" ma", "y"], [" in", "v"], [" on", "e"], [" we", "ap"], ["v", "ing"], [" I", "t"], ["i", "el"], ["ar", "ly"], [" con", "s"], [" l", "ar"], ["a", "us"], [" d", "o"], ["at", "ory"], ["re", "e"], ["he", "m"], ["c", "es"], [" a", "ppl"], [" ", "ro"], [" tr", "ans"], ["s", "u"], ["m", "er"], ["e", "ver"], [" pos", "si"], ["o", "b"], [" algorith", "m"], [" pl", "utonium"], [" 194", "5"], ["ici", "ent"], ["t", "ed"], [" l", "og"], [" Th", "is"], [" sp", "ec"], [" ex", "per"], [" n", "um"], [" dat", "a"], [" B", "rit"], [" f", "e"], ["st", "ru"], ["iel", "d"], [" m", "at"], [")", ","], [" ", "j"], ["ol", "ic"], [" s", "ome"], ["ra", "ct"], ["le", "ct"], [" ", "Y"], ["i", "an"], ["i", "p"], [" ", "est"], [" n", "o"], [" sci", "ent"], ["Qu", "antum"], [" as", "s"], [" know", "n"], ["o", "y"], ["m", "b"], ["i", "ed"], ["ow", "ever"], [" t", "wo"], ["w", "e"], ["t", "s"], [" w", "ar"], ["i", "o"], [" c", "re"], [" comp", "le"], [" an", "y"], ["oun", "d"], [" su", "b"], ["it", "s"], ["at", "ive"], ["or", "ld"], ["ut", "ion"], [" su", "per"], [" wh", "o"], ["f", "ul"], ["abor", "atory"], ["ical", "ly"], ["al", "s"], ["ic", "ations"], ["a", "ce"], [" develop", "ed"], [" in", "formation"], [" at", "omic"], [" m", "any"], [" on", "ly"], ["on", "d"], [" h", "igh"], ["ab", "l"], ["f", "t"], [" ad", "v"], [" inc", "re"], [" 20", "1"], [" at", "t"], [" lar", "ge"], ["u", "il"], [" Brit", "ish"], [" comput", "ing"], ["g", "et"], [" t", "ime"], ["on", "e"], ["i", "vers"], [" pl", "ant"], [" t", "as"], ["w", "are"], ["ol", "l"], ["ial", "ly"], ["er", "n"], [" dis", "c"], ["ol", "s"], [" o", "b"], [" be", "g"], [" ne", "w"], [" be", "t"], [" Un", "ited"], [" 194", "3"], [" E", "n"], [" Al", "am"], ["ab", "ility"], [" system", "s"], ["is", "e"], ["ar", "c"], ["her", "s"], [" ", "up"], [" p", "e"], ["ill", "ion"], [" b", "uil"], ["o", "v"], ["i", "red"], [" sp", "e"], [" comput", "ation"], [" N", "e"], ["ic", "e"], ["er", "r"], [" h", "is"], [" L", "os"], ["te", "e"], [" re", "as"], [" the", "se"], [" whe", "n"], ["i", "ous"], ["k", "ing"], [" model", "s"], ["pp", "en"], [" ex", "am"], ["n", "e"], [" d", "ire"], ["al", "e"], ["a", "w"], ["m", "ber"], [" Ar", "m"], [" Alam", "os"], ["A", "I"], ["ce", "pt"], ["res", "ent"], [" for", "m"], [" r", "is"], [" ex", "p"], ["aus", "e"], ["ow", "er"], [" t", "e"], [" a", "ut"], [" possi", "ble"], [" ", "if"], [" the", "re"], [" d", "et"], [" c", "all"], [" S", "e"], ["a", "il"], [" a", "m"], [" ", "3"], [" ", "y"], [" 194", "4"], [" dec", "ision"], ["gine", "er"], [" g", "o"], ["led", "ge"], [" network", "s"], ["ro", "ugh"], [" bec", "ame"], ["t", "ain"], ["ing", "s"], ["t", "he"], ["ers", "on"], ["al", "ly"], ["ph", "a"], [" the", "m"], [" t", "est"], [" l", "i"], [" A", "t"], ["act", "or"], [" A", "ug"], [" Aug", "ust"], [" 194", "2"], [" con", "stru"], [" reas", "on"], ["h", "od"], [" se", "arch"], [" G", "o"], ["ang", "u"], [" log", "ic"], ["f", "ter"], [" ", "ra"], [" re", "l"], [" ", "===="], [" st", "ates"], [" s", "ur"], ["we", "en"], ["ol", "d"], [" dire", "ct"], [" Arm", "y"], ["im", "er"], [" ", "err"], [" met", "hod"], [" know", "ledge"], [" l", "angu"], ["arc", "hers"], [" includ", "ing"], [" o", "pt"], [" ar", "tificial"], ["op", "le"], [" num", "ber"], ["al", "u"], ["ter", "n"], ["is", "hed"], [" cont", "ro"], [" c", "or"], [".", "\""], [" C", "ol"], [" R", "o"], [" ", "$"], ["ppen", "he"], ["ppenhe", "imer"], ["ivers", "ity"], [" tas", "ks"], [" t", "yp"], ["c", "on"], ["olog", "y"], [" con", "c"], [" des", "c"], [" dif", "fic"], [" diffic", "ult"], [" a", "v"], [" me", "as"], ["r", "on"], ["ac", "k"], [" ", "5"], [" in", "d"], [" pro", "v"], ["mer", "ic"], [" O", "ppenheimer"], [" qubit", "s"], ["hem", "at"], ["ction", "s"], ["ro", "s"], ["id", "ed"], [" ", "=="], [" pro", "b"], ["os", "ion"], ["\"", ","], [" pe", "ople"], ["c", "om"], ["ar", "k"], ["w", "ard"], [" call", "ed"], [" beg", "an"], [" exam", "ple"], [" su", "c"], [" contro", "l"], [" C", "on"], ["id", "ent"], [" of", "fic"], [" St", "ates"], ["ub", "l"], [" A", "meric"], ["id", "ge"], [" e", "qu"], [" Com", "mit"], [" Commit", "tee"], ["ren", "ce"], [" appl", "ications"], ["g", "y"], [" ne", "ural"], [" th", "rough"], ["es", "p"], [" p", "ot"], ["pl", "oy"], ["x", "t"], [" ", "ent"], [" w", "ill"], ["o", "k"], [" s", "ign"], [" whe", "re"], ["ro", "p"], ["us", "ion"], ["ot", "h"], [" H", "owever"], [" bet", "ween"], ["n", "et"], [" est", "abl"], [" J", "u"], [" Ju", "ly"], [" Ne", "w"], [" L", "aboratory"], [" Un", "iversity"], ["iz", "ed"], [" re", "m"], [" ", "Quantum"], [" reason", "ing"], [" mat", "hemat"], [" de", "f"], ["is", "m"], [" pot", "ential"], [" desc", "rib"], [" out", "put"], ["in", "ce"], ["i", "et"], ["u", "ch"], ["c", "ul"], ["ect", "ed"], [" the", "n"], ["is", "ed"], ["ic", "t"], [" suc", "cess"], [" res", "ult"], [" p", "ri"], ["he", "n"], ["o", "ur"], [" rep", "ort"], ["ual", "ly"], [" T", "r"], ["ilit", "ary"], ["h", "or"], ["over", "n"], ["av", "y"], [" t", "ak"], ["l", "es"], [" an", "al"], ["he", "s"], [" rese", "archers"], [" gener", "al"], [" g", "ro"], [" ad", "d"], [" l", "ong"], [" ex", "ist"], [" A", "n"], ["iv", "es"], ["er", "v"], [" be", "h"], [" in", "put"], ["s", "p"], [" N", "o"], [" ", "V"], [" pro", "pos"], ["icient", "ly"], [" spe", "ed"], ["s", "c"], [" develop", "ment"], ["ac", "y"], ["oun", "t"], [" d", "ist"], [" inv", "est"], ["ad", "e"], [" scient", "ists"], ["em", "ber"], ["ars", "h"], [" w", "ater"], [" err", "or"], [" langu", "age"], [" b", "ased"], [" be", "ing"], [" re", "g"], [" bec", "ause"], [" re", "al"], [" s", "et"], [" F", "or"], ["vel", "y"], ["m", "an"], [" A", "s"], [" a", "ct"], ["ic", "k"], ["c", "y"], ["it", "ies"], [" c", "ent"], [" H", "e"], [" de", "m"], ["st", "r"], ["g", "u"], [" in", "it"], ["e", "b"], [" weap", "ons"], [" p", "ubl"], [" 1", "0"], ["du", "ct"], [" W", "ar"], ["t", "on"], [" O", "ak"], [" R", "idge"], [".", ","], ["ag", "es"], ["i", "qu"], [" opt", "im"], ["ra", "ph"], [" ac", "c"], [" all", "ow"], [" sim", "ul"], ["ilit", "ies"], ["er", "tain"], [" requ", "ire"], [" m", "illion"], ["el", "f"], [" s", "it"], ["u", "res"], ["if", "ied"], ["e", "y"], [" f", "ac"], [" m", "o"], [" l", "oc"], [" su", "ff"], ["ic", "es"], [" de", "v"], ["r", "an"], ["as", "h"], [" produ", "ction"], [" U", "S"], ["w", "n"], [" s", "ep"], [" sep", "ar"], [" en", "d"], ["p", "s"], [" f", "ission"], [" constru", "ction"], [" g", "ates"], [" c", "ap"], [" f", "ield"], [" a", "ch"], [" ach", "ie"], ["b", "ot"], [" process", "ing"], [" a", "fter"], ["a", "f"], [" eff", "ect"], [" e", "m"], [" comple", "x"], ["ion", "s"], [" appro", "ach"], [" p", "erson"], [" the", "ory"], ["olic", "y"], [" p", "red"], [" s", "m"], ["ren", "t"], ["ar", "get"], ["i", "vely"], ["ver", "y"], [" T", "uring"], [" p", "r"], [" ", "4"], [" ", "9"], ["es", "e"], [" h", "ard"], [" is", "su"], [" ne", "ed"], [" weap", "on"], [" im", "pl"], [" phys", "ical"], ["ur", "ity"], ["un", "e"], [" ", "6"], [" p", "o"], ["iz", "ation"], [" p", "ract"], ["ater", "ial"], [" G", "erm"], ["arsh", "all"], [" e", "lect"], ["qu", "bit"], [" en", "gineer"], [" method", "s"], [" includ", "e"], [" ", "ve"], [" rep", "resent"], [" w", "ell"], ["og", "n"], ["end", "ed"], [" e", "arly"], ["th", "ough"], [" imp", "ro"], [" c", "od"], [" w", "orld"], ["ul", "ar"], [" ex", "t"], [" The", "y"], [" exper", "im"], [" Al", "pha"], ["ist", "ic"], [" c", "ost"], [" f", "ind"], [" requ", "ired"], [" comm", "un"], [" sh", "ould"], [" sh", "ort"], [" av", "ail"], ["i", "b"], [" ", "8"], [" ar", "gu"], ["ore", "d"], [" g", "overn"], ["ay", "s"], [" sec", "urity"], [" meas", "ure"], ["for", "d"], [" J", "une"], [" cre", "ated"], ["pp", "ed"], [" he", "ad"], ["pt", "ember"], [" per", "form"], [" mach", "ines"], ["uton", "om"], [" su", "pp"], [" f", "ound"], ["en", "ces"], ["ent", "ion"], [" B", "y"], [" sol", "ve"], [" part", "ic"], ["en", "se"], [" wh", "at"], [" lear", "n"], [" c", "al"], [" buil", "d"], [" inv", "ol"], [" v", "alu"], [" f", "ut"], ["in", "ing"], ["ru", "ct"], [" G", "ener"], [" t", "arget"], ["ot", "her"], [" b", "oth"], [" li", "ke"], ["5", "0"], ["sc", "ale"], ["im", "es"], ["on", "str"], [" m", "an"], [" aut", "hor"], [" establ", "ished"], [" o", "wn"], ["h", "n"], ["om", "m"], [" c", "rit"], ["le", "y"], [" phys", "ic"], [" cons", "id"], [" O", "n"], ["ber", "t"], ["il", "y"], ["us", "h"], ["2", "3"], [" re", "actor"], [" Se", "ptember"], [" ", "—"], [" g", "ate"], [" adv", "an"], [" techn", "iqu"], [" The", "se"], ["at", "or"], [" program", "s"], [" se", "ver"], [" ag", "ent"], [" e", "ach"], [" ag", "ents"], ["an", "ge"], ["iv", "en"], [" with", "out"], ["re", "t"], ["um", "b"], ["u", "red"], ["fer", "ence"], ["f", "ore"], [" un", "t"], [" unt", "il"], ["i", "er"], [" l", "ay"], [" r", "ight"], ["h", "ip"], [" m", "em"], [" c", "ur"], [" the", "ore"], [" In", "t"], [" dem", "onstr"], ["at", "her"], ["all", "en"], [" propos", "ed"], ["a", "ve"], [" invest", "ig"], ["n", "ess"], [" p", "ur"], [" ", "ide"], [" rec", "omm"], ["an", "ford"], ["an", "ad"], ["ap", "an"], [" pract", "ical"], ["a", "red"], [" m", "aterial"], [" S", "ov"], [" Sov", "iet"], [" Americ", "an"], [" M", "arshall"], [" De", "ce"], [" Dece", "mber"], ["he", "rence"], [" st", "ud"], [" f", "und"], [" de", "ep"], ["re", "ad"], [" e", "th"], [" pro", "m"], [" b", "el"], ["op", "e"], [" prob", "ability"], [" produ", "ce"], ["mb", "olic"], [" ma", "ke"], [" sever", "al"], [" h", "ow"], [" ", "esp"], [" fut", "ure"], [" wh", "ile"], [" f", "un"], [" p", "at"], ["he", "re"], [" rec", "ogn"], [" 202", "3"], [" r", "ad"], [" Gener", "al"], ["or", "n"], [" h", "and"], [" spec", "ial"], [" d", "uring"], [" imp", "ort"], [" disc", "over"], [" f", "ar"], [" p", "ower"], ["ir", "c"], ["s", "on"], [" M", "ay"], [" sh", "ow"], [" ch", "allen"], [" J", "o"], [" avail", "able"], [" sur", "ve"], [" or", "der"], [" cor", "re"], [" ris", "k"], ["re", "m"], ["f", "usion"], ["ple", "ment"], [" J", "apan"], [" N", "ational"], ["at", "ely"], [" bomb", "s"], [" W", "ork"], [" te", "am"], [" rem", "ain"], [" O", "C"], [" OC", "L"], [" OCL", "C"], [" speed", "up"], ["x", "im"], [" go", "als"], [" a", "utonom"], [" st", "r"], ["il", "os"], ["ilos", "op"], [" Go", "og"], [" Goog", "le"], [" De", "ep"], [" c", "y"], [" gener", "ative"], [" m", "ed"], [" add", "ition"], [" conc", "ern"], [" ris", "ks"], ["m", "ed"], [" 202", "4"], ["e", "ar"], [" sm", "all"], ["as", "ter"], [" att", "em"], [" attem", "pt"], [" sol", "ution"], ["n", "ot"], ["c", "l"], [" s", "ing"], ["e", "g"], [" th", "ose"], [" ", "ident"], ["if", "y"], [" incre", "ase"], [" techn", "ology"], [" P", "h"], [" J", "an"], [" Jan", "u"], [" Janu", "ary"], [" f", "in"], [" produ", "ct"], [" j", "ob"], [" m", "ilitary"], [" hard", "ware"], ["p", "r"], [" S", "ci"], ["i", "ver"], [" pro", "t"], ["j", "or"], [" Int", "elligence"], ["er", "gy"], [" buil", "t"], ["ur", "g"], ["yp", "e"], [" m", "ade"], [" consid", "er"], [" C", "anad"], ["ve", "mber"], ["it", "ud"], [".", "."], [" N", "or"], ["net", "ic"], [" At", "omic"], [" scient", "ific"], [" Con", "ant"], [" e", "f"], [" ef", "for"], [" separ", "ation"], [" he", "avy"], ["ich", "ols"], ["1", "2"], ["o", "herence"], [" comput", "ational"], [" typ", "ically"], [" en", "v"], ["ir", "on"], [" comp", "an"], ["et", "a"], ["o", "int"], [" pre", "v"], [" b", "o"], ["in", "c"], ["et", "y"], [" spec", "ific"], ["ellig", "ent"], [" h", "um"], [" 19", "9"], ["al", "ing"], [" s", "l"], ["g", "ed"], [" d", "om"], [" s", "ince"], [" ac", "qu"], [" ass", "ign"], [" cal", "cul"], ["c", "c"], [" m", "ust"], [" experim", "ent"], ["ab", "ly"], [" ve", "ct"], ["a", "ction"], [" dif", "fer"], [" pri", "or"], ["it", "t"], ["rib", "ut"], [" eff", "iciently"], [" import", "ant"], [" d", "id"], ["act", "ors"], ["il", "ot"], ["om", "et"], ["o", "u"], [" d", "est"], ["p", "or"], ["pr", "il"], [" le", "ad"], [" d", "el"], [" produ", "ced"], [" est", "im"], ["re", "y"], ["st", "it"], [" H", "ar"], [" ide", "a"], [" cl", "a"], [" cla", "im"], [" A", "A"], [" im", "plement"], ["gine", "ers"], [" No", "vember"], [" C", "ong"], ["ic", "ation"], [" crit", "ical"], [" O", "r"], ["st", "e"], ["ric", "t"], [" H", "anford"], [" F", "at"], ["ose", "vel"], ["osevel", "t"], [" B", "ush"], [" C", "al"], [" dif", "fusion"], [" l", "ater"], [" ne", "ut"], [" s", "ite"], ["1", "0"], ["ly", "n"], ["lyn", "om"], ["lynom", "ial"], [" engineer", "ing"], [" tak", "e"], [" advan", "ced"], [" anal", "ys"], ["at", "ural"], [" ro", "bot"], [" mathemat", "ical"], [" compan", "ies"], [" m", "ult"], ["oll", "ow"], [" w", "id"], ["se", "qu"], ["iv", "ed"], [" hum", "ans"], [" ma", "king"], [" em", "ploy"], [" output", "s"], ["w", "orld"], [" ob", "ject"], [" com", "b"], ["A", "n"], [" m", "uch"], [" ch", "o"], [" g", "u"], [" re", "li"], [" det", "erm"], [" g", "iven"], ["u", "per"], [" res", "p"], ["e", "ep"], ["ech", "an"], [" other", "s"], ["r", "ad"], [" s", "ent"], [" to", "o"], [" he", "l"], ["k", "ely"], [" p", "ar"], ["w", "h"], [" sing", "le"], ["e", "f"], ["olog", "ical"], [" ev", "ent"], [" re", "le"], [" use", "ful"], [" cent", "r"], [" un", "it"], [" m", "on"], ["re", "at"], [" ch", "ar"], ["ect", "ion"], ["2", "5"], ["g", "est"], [" sign", "ific"], [" M", "arch"], [" to", "p"], [" appro", "ac"], [" c", "ount"], ["ust", "r"], [" A", "pril"], [" Jo", "hn"], ["us", "s"], [" l", "ow"], [" Un", "ion"], ["re", "ed"], [" ", "7"], ["on", "el"], ["ress", "ed"], [" are", "a"], [" th", "ree"], ["e", "ars"], [" sec", "ond"], ["t", "o"], [" m", "ind"], ["3", "0"], [" C", "or"], [" Work", "s"], ["en", "n"], [" impl", "osion"], ["4", "0"], [" H", "i"], [" Hi", "ros"], [" Hiros", "h"], [" Hirosh", "im"], [" Hiroshim", "a"], ["n", "el"], [" Com", "m"], [" o", "re"], [" Ro", "osevelt"], [" Col", "umb"], [" Columb", "ia"], [" B", "o"], [" Y", "ork"], [" N", "ichols"], [" gro", "up"], [" t", "ons"], [" c", "ry"], [" B", "Q"], [" BQ", "P"], [" so", "ft"], [" env", "iron"], ["ir", "t"], [" autonom", "ous"], [" sp", "ace"], [" oper", "ations"], ["p", "en"], [" mult", "i"], [" h", "ist"], [" inter", "est"], ["ific", "ation"], ["ul", "ation"], [" re", "ce"], ["w", "er"], [" qu", "est"], [" b", "illion"], [" a", "ction"], [" esp", "ec"], [" espec", "ially"], [" beh", "av"], [" stud", "y"], [" pat", "tern"], ["o", "od"], [" re", "st"], [" bel", "ie"], [" en", "c"], [" a", "ble"], ["b", "ers"], [" b", "ack"], [" to", "ols"], ["ac", "ed"], [" report", "ed"], ["2", "0"], [" b", "en"], ["t", "ing"], ["as", "ing"], [" l", "aw"], ["am", "ed"], [" r", "ather"], ["as", "es"], ["t", "ic"], [" signific", "ant"], ["ro", "du"], [" approac", "hes"], [" direct", "or"], [" R", "ese"], ["og", "raph"], [" s", "er"], [" f", "actor"], [" t", "em"], [" ne", "cess"], [" F", "ran"], ["at", "ors"], [" m", "ass"], [" W", "e"], [" 19", "6"], [" so", "ur"], [" publ", "ic"], ["ci", "ous"], [" govern", "ment"], [" G", "e"], ["on", "t"], [" con", "f"], [" th", "ough"], [" ne", "ar"], [" s", "ame"], ["iv", "al"], ["ro", "und"], [" 194", "6"], [" su", "p"], ["es", "se"], ["ash", "ing"], [" sit", "es"], [" expl", "os"], [" N", "ag"], [" Nag", "as"], [" Nagas", "ak"], [" Nagasak", "i"], [" O", "ct"], [" Oct", "o"], [" Octo", "ber"], [" ma", "g"], [" c", "ar"], ["ur", "n"], ["pt", "on"], ["art", "ime"], [" P", "olicy"], ["all", "urg"], [" Ch", "ic"], [" Chic", "ag"], [" Chicag", "o"], [" l", "aboratory"], [" I", "S"], [" po", "lynomial"], ["O", "T"], ["cept", "ion"], [" pl", "an"], [" techniqu", "es"], ["con", "om"], ["it", "ive"], ["ad", "em"], [" w", "ent"], [" f", "ollow"], [" s", "af"], [" eth", "ical"], [" concern", "s"], ["ter", "m"], ["ow", "n"], [" describ", "ed"], [" sol", "ving"], [" 19", "8"], [" me", "an"], [" tra", "ined"], ["li", "ke"], [" an", "s"], ["or", "m"], [" w", "ord"], ["od", "y"], [" v", "ar"], [" its", "elf"], ["e", "x"], [" c", "ertain"], [" impro", "ve"], [" experiment", "al"], [" fun", "ction"], [" re", "ad"], [" recogn", "ition"], [" quest", "ion"], ["l", "ess"], ["ict", "ion"], [" m", "echan"], ["t", "ra"], [" ab", "ility"], ["r", "is"], ["ent", "ly"], [" us", "es"], [" loc", "al"], ["ul", "es"], ["in", "s"], ["ol", "ution"], ["ribut", "ed"], [" process", "es"], [" sol", "ved"], [" program", "m"], ["en", "cy"], [" ", "0"], [" design", "ed"], ["pl", "es"], ["i", "ence"], [" vect", "or"], [" fe", "ed"], ["g", "es"], ["1", "5"], [" c", "irc"], [" s", "omet"], [" su", "g"], [" sug", "gest"], [" al", "though"], ["am", "p"], [" int", "rodu"], [" 202", "5"], [" high", "ly"], ["op", "er"], [" F", "eb"], [" Feb", "ru"], [" Febru", "ary"], [" of", "fer"], [" le", "g"], [" e", "le"], ["l", "ob"], [" cont", "ain"], [" cont", "in"], [" contin", "u"], [" work", "ers"], ["a", "ir"], [" in", "f"], [" e", "as"], [" whe", "ther"], [" f", "oc"], ["et", "ing"], ["w", "ay"], ["stit", "ut"], [" H", "en"], [" inter", "n"], [" L", "aw"], [" possi", "b"], [" l", "ed"], ["r", "ons"], ["fer", "red"], [" Ro", "bert"], [" Cor", "ps"], [" cod", "en"], ["ric", "hed"], [" re", "actors"], [" W", "ashing"], [" Washing", "ton"], [" fac", "ilities"], [" g", "un"], [" Germ", "an"], [" p", "ost"], [" Cal", "if"], [" Calif", "orn"], [" Californ", "ia"], [" en", "ough"], [" Col", "onel"], [" assign", "ed"], [" so", "on"], [" F", "ield"], ["4", "5"], [" techn", "ical"], ["2", "9"], [" IS", "B"], [" ISB", "N"], [" super", "pos"], [" superpos", "ition"], [" ent", "ang"], [" b", "it"], [" dec", "oherence"], ["con", "duct"], [" Ar", "tificial"], [" sci", "ence"], [" soft", "ware"], [" environ", "ment"], [" pl", "ay"], [" str", "ate"], ["am", "es"], [" n", "atural"], ["is", "ation"], [" d", "ra"], ["s", "y"], [" ph", "ilosop"], [" st", "art"], [" trans", "form"], [" 202", "0"], [" allow", "ed"], ["b", "y"], [" l", "ate"], [" un", "c"], [" expl", "osion"], [" e", "mer"], [" dom", "ain"], [" ", "ver"], [" te", "xt"], [" ag", "ain"], ["ach", "ine"], [" h", "owever"], [" decision", "s"], [" w", "ay"], ["i", "res"], [" tra", "ining"], ["om", "s"], [" k", "ey"], [" under", "st"], ["P", "T"], [" E", "x"], [" ev", "en"], ["com", "put"], [" T", "echn"], [" differ", "ent"], [" hel", "p"], ["w", "ar"], [" ass", "um"], ["m", "a"], [" C", "l"], [" lay", "ers"], [" p", "ass"], ["r", "ast"], [" h", "ig"], [" pro", "f"], [" theore", "t"], [" e", "very"], [" mon", "th"], [" f", "aster"], ["is", "ing"], ["at", "ic"], ["oc", "k"], [" achie", "ved"], [" f", "our"], [" C", "ar"], ["so", "ur"], ["t", "en"], ["c", "k"], [" surve", "y"], ["lob", "al"], [" pri", "v"], [" ac", "cess"], [" m", "ark"], [" can", "not"], ["ine", "ar"], [" E", "u"], ["rop", "e"], [" argu", "ed"], [" con", "v"], ["c", "ing"], [" to", "t"], [" tot", "al"], [" foc", "us"], [" prior", "ity"], [" be", "fore"], [" dec", "ided"], ["p", "art"], [" Hen", "ry"], [" y", "ears"], [" ag", "reed"], [" addition", "al"], [" p", "resent"], [" success", "ful"], [" 1", "00"], [" an", "other"], [" Ar", "th"], [" Arth", "ur"], [" D", "ist"], [" En", "gineer"], [" T", "enn"], [" Tenn", "esse"], [" Tennesse", "e"], ["itt", "le"], ["t", "ype"], ["p", "ort"], ["in", "ity"], [" person", "nel"], [" re", "action"], [" 194", "1"], ["23", "5"], ["ri", "ed"], [" Com", "pton"], [" w", "artime"], ["rom", "ag"], ["romag", "netic"], ["se", "mb"], ["ip", "ment"], [" C", "o"], [" D", "u"], [" rad", "io"], [" B", "omb"], ["7", "8"], [" am", "pl"], [" sup", "rem"], [" suprem", "acy"], [" cry", "pt"], [" crypt", "ograph"], [" Gro", "ver"], ["s", "ol"], ["ak", "ing"], [" a", "ctions"], [" ass", "ist"], [" analys", "is"], [" e", "conom"], [" up", "on"], [" acc", "el"], [" accel", "er"], [" prev", "ious"], [" ar", "ch"], [" arch", "it"], [" archit", "ect"], [" mean", "ing"], [" f", "ast"], [" ch", "ain"], ["o", "f"], ["act", "s"], [" rel", "ations"], ["7", "0"], [" again", "st"], [" P", "l"], [" aut", "om"], [" sit", "u"], ["\"", ")"], ["ab", "il"], ["A", "l"], [" ev", "alu"], [" behav", "io"], [" behavio", "ur"], [" pattern", "s"], [" requ", "ires"], [" S", "p"], [" trans", "l"], [" b", "as"], [" st", "ruct"], [" v", "is"], [" a", "ff"], [" sim", "il"], ["ord", "in"], [" c", "ol"], [" re", "du"], ["ot", "on"], ["am", "s"], [" Al", "l"], [" wid", "ely"], ["19", "9"], ["ros", "s"], [" mem", "ory"], [" l", "ess"], [" event", "ually"], [" discover", "y"], [" circ", "u"], ["i", "k"], ["ploy", "ment"], ["ie", "f"], [" demonstr", "ated"], [" cap", "able"], [" b", "l"], [" med", "ical"], ["at", "ure"], [" ar", "tic"], [" c", "lear"], ["g", "ing"], [" Gro", "up"], ["ord", "ing"], ["en", "sion"], ["ro", "y"], [" M", "ilitary"], [" comm", "and"], ["a", "pt"], [" In", "d"], ["op", "es"], [" dev", "ices"], [" r", "ange"], [" st", "ill"], [" work", "s"], [" al", "read"], [" alread", "y"], [" ma", "jor"], [" expl", "ain"], [" m", "is"], [" Eu", "rope"], [" cur", "rent"], [" A", "d"], [" mo", "le"], [" mole", "cul"], [" f", "ul"], ["os", "ed"], [" d", "one"], [" sour", "ce"], [" physic", "ist"], [" do", "es"], [" valu", "es"], [" j", "ust"], ["iz", "e"], [" n", "ow"], [" comple", "ted"], [" recomm", "end"], [" l", "and"], [" right", "s"], [" prov", "ide"], [" H", "ist"], [" present", "ed"], [" cons", "cious"], ["7", "6"], ["ar", "ily"], [" S", "uper"], [" m", "ight"], ["am", "il"], [" En", "gineers"], [" Dist", "rict"], ["velop", "ment"], [" plant", "s"], [" en", "riched"], [" init", "ially"], [" det", "on"], ["s", "os"], [" U", "r"], [" Ur", "anium"], [" P", "res"], [" B", "r"], [" 194", "0"], [" is", "ot"], [" Law", "rence"], [" t", "urn"], ["a", "ff"], ["ur", "ch"], ["ase", "ous"], [" centr", "if"], [" M", "et"], [" Met", "allurg"], ["iv", "ision"], [" cont", "ract"], ["E", "D"], [" r", "ating"], [" equ", "ipment"], [" constru", "ct"], [" oper", "ation"], [" Du", "P"], ["ste", "ad"], ["c", "ks"], [" c", "hem"], ["us", "p"], [" Tr", "uman"], [" b", "its"], [" corre", "ction"], ["N", "OT"], [" per", "ception"], [" v", "irt"], ["ant", "s"], [" cont", "ent"], [" plan", "ning"], [" supp", "ort"], [" optim", "isation"], ["h", "y"], [" S", "ome"], [" Deep", "M"], [" DeepM", "ind"], [" le", "ast"], [" ac", "adem"], ["5", "6"], [" multi", "ple"], [" fund", "ing"], [" incre", "ased"], [" g", "raph"], [" h", "ar"], [" cre", "ating"], [" int", "elligent"], ["pl", "ay"], ["u", "z"], [" unc", "ertain"], ["ple", "te"], [" con", "cept"], [" typ", "e"], [" gener", "ate"], ["med", "i"], [" sy", "mbolic"], [" represent", "ed"], ["per", "t"], [" partic", "ular"], [" w", "ide"]]}